1001011000101010
1010110010110011
0010101000110010
0010011001010111
0010010111100100
0010100010010001
1010010001000101
1010111001001001
1010110100111110
1010000110000111
1010101000011101
1001010010000100
0010111111110110
1010010100101001
1001011110110010
0011001010111000
0010101100101100
0010110101110000
1010001111111000
0010010101110001
0011000001011100
0011000001000101
0010010110100011
1010011001110110
0010111110001100
0010110011001101
1010101101111100
0000101001010010
1010110101111101
1010110110110000
1010100000001010
0010110001010011
0010101101000010
0001111011000101
0010011001111011
0010110011010100
0010110000001001
0010101101010011
0010100100001100
1010101100001100
0011000000000011
0011001011001011
0011001001010010
0010001110111110
0010110100000110
0011001001100010
1010010010111010
0010100101100100
0010111000101000
0010110010110101
0010010011011101
1010101111010001
0010010111110000
1010011010100100
0001111011110010
0010011101001111
1010111100011111
1010111000111101
1010110101010000
1010011110100010
0010001110010011
0010100000000001
0010101010010001
1010111100010011
1010110011011100
0010110000111011
0010110001100110
0010110110110111
0010011111111101
1010100011101010
0011000011101010
0010101001011110
0010000000010110
0011000000100001
0010101000011000
1001110011011110
0010110101001010
1010000101100011
0001010110101110
0010111001010101
1001010100100100
0010101110011010
1010110100100000
1010000100111100
1010110101000110
0010010111001111
1010110010001110
1010111000010111
1001100000111111
1010110011000111
0010101110000101
0010011000000110
1010100000110110
1001110011100000
0010110110111101
0010110010000101
1010010111100100
1010001100011110
1010101001000101
0010110001000011
1010101111001100
0010100100100010
0010110000111011
0010110001001001
0010111010010111
1010101010100000
1011000110111000
1011000100100110
0010110101000001
0010110111010010
0010000111001010
1010100010100100
1011001000011101
1001111010100010
0010110110001010
0010111110001111
0010101000110110
0001111111011110
1010110011110001
1010100011000001
0010101101111010
0001101100111110
1010110111010001
0010010100100000
0010110100000111
0010100001101110
1010010101100110
1010110110001111
1010110001110110
0011000010010101
0010110001011011
0010101111011101
1011000110010111
1011000000010101
0011001001101011
0011000101010000
0010101111000000
1011001001111010
1011000111100110
0010100010010101
0010111010101010
0010111000101010
1010110011011100
1011000100000010
1010111011100101
0011000110111100
0011000000101110
1010111000011110
0010110001110011
0010110111010000
1010111000101000
1010100100110110
1010110111101010
0011000000001010
0010110100110010
1010010111111101
1010110010100100
1011000110110110
0010110011011110
0011001100111100
0010110111000001
0010010000001000
1011001001011111
1011000001000011
0011000000011000
0011001101111110
1010101000010111
1011000000110110
1010111000011010
1010010110100000
0010001001101010
0010100000010001
1010110000110110
1010110010110100
0010110000111010
0010111100011101
0010111010010110
1010101111001010
1010100001111101
0010001010001001
0010100101111111
1010100110001000
1010101010101010
0010110000100111
0010101111011101
1010010010111110
0001101010011011
1010011110001010
0010100100000000
1010000011000111
0010111000110110
0010111010000011
1010010110101000
0010111011111011
0010110110001010
1010101000011101
1010101001001101
1010001011001101
0010110110100110
0010100110100011
0011000000100000
1010101101001100
1010110010011011
1011010000011010
1011000111001001
0010100000110101
1010000101101101
1010010110011111
1010000011110100
1010110100001111
0010100110000111
0010110010111010
0010111111101001
0011000001101100
0010101010000110
0010111111111010
0010100010100010
0010110100110101
0010111011010111
0010111110001001
1010111101001101
1011001011111001
1011000110110111
1010000100101101
1011000001000010
1010011101011111
1010001100101101
0010101111100111
1011001000111100
1011000000110001
0010100111101000
0010110101110100
0010110110100111
0010110001100111
1010110110000101
1010001010111011
0011001010011000
0011000000001100
0010100011110011
0010100110000000
0010111111110001
0010110111011100
1010100001111110
0010011101011001
0010110110101101
1010010011110001
1010111100101011
1010111000001011
1010111111100101
0010010010111010
0010111100110101
1010101011110101
1011000110101101
1011010000100010
1010100100110111
0010111111110100
0011000100101101
0010011101110001
0010001000001101
1000110001101000
1001111011101001
0011000001011000
0010111100001000
0001101010100000
0010111100010011
0011000001101101
0010011101100000
1010001011111101
0010111010110001
1010100001001001
1010111000010111
1011000010101111
1010111100001110
1010110111100010
1011000000110011
0010110010000011
1010101101010111
0010110111010001
1010011111010110
0010000110001001
0010101001000100
0010111010111100
0010100011001010
0011000000001001
0001111111000111
0010110101101010
0010110110010000
0010111001110010
0010111001110010
0011000000100011
0010011100010101
0010110010110001
0010011011000100
1010001000000011
1010110100001101
1010110101100011
1010110010000001
1010110001110000
0010110010010110
1010100111111001
0010100111100000
1010100010000011
1010000011000111
0010100001100100
0010101011001111
1010100001011101
0011000011010011
0011000111110000
0010111111110101
1010101101000011
0010100100001000
0011000011010001
0010110001011110
0010110011100111
0010110100010111
0010100111000100
1010110001100101
1011000101000010
1010111101000100
0011000001110100
1010000111001110
1010111010100111
1011010000001011
1010110010000000
1010011011101010
1001101101011000
1010010111100000
1010100111010000
1010110111101111
0010000100111010
1010010010000010
1010101001110100
0011000000011001
0010111010001101
0010101001111011
0010110111100011
0010111100010010
0011000100111001
0011001001100010
0011000101010001
1010110110101011
1010110001011011
1010000010011011
1010110011100011
0010101011101000
1011000000100100
1010011011100000
1011000011110100
1010111001110111
1010111000100001
1010010101001110
1010110111100000
1011000110011111
1010111011001000
0010101011011001
1010110010101111
0010110000100010
0010110110100001
0010111100010101
1010111010000110
0010110001101110
0011001110001110
0011001100001100
0011001010111101
0011000111111110
0010100000101011
0010110110010000
1010110101110111
1001101010011010
0010111111111011
1010011001000110
1011000000111110
1011010011101010
1011000111001111
1010110000010010
1010101100001011
0010000111110000
0010110001111001
0010110100101010
1010110010011000
0010110110000110
0010111001110101
0010011011011001
0010111001111111
0010001100011011
0010100010011000
1010010001001001
0010111010100001
1010101111100010
0010110111100111
0010111010100000
1010110001001001
1010111100000111
0001111000101110
0010110001000010
1010110000000111
0010100111111100
0010110001110011
0010110110001110
0010000110010001
0010100010100100
0010010010000100
1010101001111110
0010011111110110
1010111011010011
0010001001001001
1010110000011011
0010100110101011
0010101111100111
1011001001010101
1010111111000011
1010111101010111
0011010001100100
0010111010000010
1011001111111010
1011000001010101
1001101010001100
0011010001111011
1010111100010010
1011001101011010
1010110001010110
0011000100001000
0011001001100001
1011000000111011
1011000111100000
1010110111111011
0000111100110000
0010101010101011
1010101111001001
1010100110111111
1010110001101001
1011000010110101
1010000001101110
0011001011100110
0010101000111011
0010010001011110
1011000110001000
0010110001111110
0011000001000001
1010100001010100
1011000100111010
1010110011110111
0011001011101001
0010101000111111
1011001001001101
1010100001001011
0010100001010011
0010110010011111
0011000011111101
1010010101010101
1010110100100001
0001100010100010
1001100111011110
0010110001010110
1010010001001101
1010100010000001
1010110101111000
0011000110011100
0011000010001000
1010110100110000
1011000001001011
0010010001001000
0011001001001001
0010111000100110
1011001001110110
1010110000001011
1010111001011011
0010111110011111
0010111100111100
1011010000001111
1010111101000111
0010111001010010
0011001010101110
0010010000011110
1011001000000111
0010100100100011
0010011010100001
0010011000100110
0010111010010111
0010100101111000
0010110000010100
1010100101000100
1010101111000110
0010100010010111
0010010010110010
1010101110011100
1010110101101001
0010001101011110
0001001100001100
1010110010010100
1010010011000100
0010110011110111
0010010001011100
1010110000100000
0010110001111011
0010101011001110
0001101101000101
0010001101100111
1010101000111000
1001011100111010
0010111111011101
1010101101001100
1011000100111000
0010111101101101
0010100000110100
0010101011001010
1011010011101000
1011000010110000
0011001000000001
1010010111111000
1011000000111100
1011001001101110
0011001100111111
0011010000110011
0010001010001110
1011001010110001
1010100100111100
0011010101011101
0011001001011001
1011001111111111
1001110001100111
1010010101011101
0011000000110101
0010100100100001
1011001111100110
0011001000000111
1010100000111011
1011000101100010
0001100110100100
0011001111000100
0011001111101110
1010110010111011
1011001110010010
0011000110101101
0011010000101011
0011000011011111
1011001101001110
1010101001100011
0011000101101000
0011000111111100
1010011011100110
1011000110100100
1001101010110100
0011001110101110
0010110100011110
1010110100111100
1010101111111010
0010110001111010
0010001110011001
1011000010011011
1010100000001101
1011000010000011
1011000100101111
0011001010000101
0010111111011100
0010000110110011
1011001101011100
1011001001110110
0011000010111001
0011000100100100
1010010111100000
1011001111011101
1010100111110101
0011010010110000
1010001011011100
1011000110011011
1010010001010011
0010111011001001
0011001010000111
1011000110001011
0010100011000010
1010101100100011
1010000101011011
1010101111001011
1011000100001000
1001110101100010
1010110001001000
1010111100101100
1010111001101101
1010111011100110
1001100000011010
0010101001111110
1010011010110010
1011000000100011
0010101111000000
0010101111101011
0010110110101100
1010101001110101
0010100110001011
0010010010110000
0010101000100010
0010100110001011
0010101001010011
0010100111000111
0010111010000111
0010100110011000
0010010101100001
1010100010000011
0010110100110001
0010100111000011
1011000101000111
1011001100100101
1011001001010010
0010110000001101
0010110010101000
1011001110010000
1011000100100101
0011000000110001
0010110101010100
1010101011010010
1011000101101110
0010110110011001
0011010000101110
0011000011011000
0010110000010111
0010100010111100
0010100010000100
0010101001111001
0010100111001100
0010010010101111
1010100100010001
1010101100100111
1010101011001001
0010010100010010
1010101001011100
1010010010101111
1011001010000011
1011010101001010
1010110001001111
1010100000110101
0010000111011011
1011000110101001
1011000010011010
0011000000101000
0010101011110111
1011001000100101
1011000100010011
0010111011100010
0010111011110110
0001111011101100
1010100001011000
1010110011010111
0011000000111000
0010110111001001
0010100011000110
0010001111111000
1010011110000111
0010101011000110
1010100101010111
0010000011010101
1010111101110001
1011010001001011
1011010001100001
0010100100101011
1010101011110000
1011001010011000
1011000000000110
1010100010111001
0011000101011111
1010011011000011
1011001011010100
1010110110000001
0011001100011010
0010111100100101
0010111111111101
1010110010111100
0010110000110100
0010011100110101
0011000001000111
1010101010111001
0010101111111001
0010110000111010
0010100110010000
0010001100110000
1010101010111011
0010101111100011
1010001011100000
1010101011001011
0010010010111011
0010100100001110
1010000000110111
0010110100110101
1010100111010100
0010011111100010
1010100010101100
0010110101001110
0010011110101100
0010011000101111
0010110110101100
0010101011001001
0010110110001110
1010000011100001
1010111000000010
0010110010000011
0010000110111001
1010011011001101
0010100111000010
1010010010101010
0010110110101011
0010111011111010
1011000111001101
1010111100111110
1011010001000110
1011010001110011
1011000100011010
1010101101001011
1011000111000111
1011001001110001
1011000110001111
1011000001011010
0011000110000001
0011001001001010
0011010001110101
0011010010011010
0011001100000101
0001101110000001
0010110001000010
0011001011001010
0010100011010111
0010001111111110
0001110110001010
1011000110010111
0010100010000110
0001010100110001
1011000111101011
1010100000101111
1011001101011001
1011001101010101
1011000000001010
1011010001000110
1011000000001010
1010111000010100
1011001001010110
1011000111110000
0010000110011100
0010111000001010
0011001010010011
0011001001001011
0010101010010010
0011000011100011
0010101000101010
0010111100010111
0011001010001110
0011000110111000
0011000011110111
1010010000101010
1011000001110001
1011000101001101
0010010100000100
1010100011011111
1011000101100010
1011000011110001
1011001010111101
1010110111000010
1010101010001011
1011001011000010
1011000110110011
1011000100110101
1011000111101001
1011000100001011
0011000011101110
0010010010100000
0010110000111100
0011000100110001
0010110101001001
0010111100011101
0011001110111001
0011010001111011
0011000011011101
0011000000000010
1010110101011110
1011000011100111
1011000000010101
1010001000101011
1011001011000101
0010110011110010
0010110001111011
0010110000111101
0010110001001110
0010000100011011
1010100100001010
0011000001111010
0010110100100100
0010110101010011
0010100011001111
0010010001000000
0010110100100110
0011000000001110
1001110010010000
1010110000001110
1010110001001101
0010100111101011
1010011001100000
1010111011000111
1001111101010111
0010100011101011
1010100110010100
1010111001010101
0010110110011100
0010110101011100
0010101011001100
0010010111011111
1001011010000001
1010000010011010
1010111000011010
1010100111001101
1001100010011010
1010010101110110
0010111110100111
0001011001111100
1010101011101100
1010011000101111
0010101000110110
0010110011100100
1001111111101110
0010101001010110
1010001110011101
1010111010101010
0010111110000011
0010110111101000
0010011100110011
0010110001011011
1010101100010000
0000101110110011
0010110010101111
1010110100011100
1010001011010101
0010111001010111
1010011001000100
0010100110111111
1011000011001101
1001110001101010
0010111011100000
1010011111110101
1010010101111101
1010100111100001
1010100010100010
1010111001011111
0010111111111000
0010011000000110
1010111001100100
1010100000010001
1000110100100110
0010101110101110
1010010011110110
1010110011011110
1010111011010010
1010110100000010
0010100011110101
0010111001010011
0011000000001000
0011000011110011
0011000000110000
0010110010000100
1010101011000100
1011000011111000
0010101011000110
0010100001110101
0010111100011110
0010101100000011
1010110010100100
1010111010000111
0001111111000000
0010011111111011
0011000011011110
1010111101111010
1010101001111110
1010111101000011
0010110001000000
1010100101101010
1010101011010000
0010110000001000
1001011011000011
0011000000100110
1010001100000111
1010110101011011
0010110010000100
1010010111111010
1010110010101011
1010001110010000
1010110101100111
0010100011000100
0010110011011111
1010100011111001
0010100111100111
0010100011001000
0010111000000011
1010100011001101
0010010100101110
0010000010100101
0010011000111011
0010100011101100
0010110100101101
0010010101101100
0010101001000111
0010101110101011
0010110010101111
1010011000100111
1001111101000101
0010110101101101
0010111000110011
0010100001000111
0010010001101101
1010011111101000
1010110010011000
0010010011000011
0010111011001001
1010110101100101
0010000101100110
0010111110000100
1010011010001010
1010110010101111
1010101101110110
0010100101010100
0011000100010011
1010111000010001
1010111011011000
0010101010100001
0010111101011101
0011000101100001
1010011111100100
1010101011110001
0010010010110100
1010101100110100
0010011100010000
1010011001010111
0010110001010000
1001110111101111
0010101000000011
1010100111001100
1010110010000110
1010100010100100
0010110011010111
1010010001010101
0010100011001001
1010010110100111
0010001101111100
0010110100110010
0010111001100001
0010011001011010
1011000001001110
1010111100001000
0001100101110000
0010011110100100
0010100000001110
1010111000111101
0010110001111101
0010111011100000
0010111000100000
0010110010001100
0010000101001001
0010111000000011
1001111001010110
0010101111111100
0010101010010111
1010100111000110
0010110101000011
0001110010111010
0010110110101111
1010110000111100
1010111010000001
1010100011010110
0010100100000001
0010010111110110
0010011111010000
1010110101000111
1010110110110101
1010100010111100
0010110011011110
0010101110110101
0000001101011100
0010101111100100
0010101111000100
1010110100100011
0010110001110100
1010100100100010
1010111010111101
1010100000111110
0001100011111111
1010111010110000
1010101011110010
1010011000101101
0010101100010110
0010100100110110
1001100101110010
0010001101110101
1010110001110111
0010110110110110
1010110000010111
0010010011010010
1001000111100010
0010110101001100
0010101011111111
0010001100001001
1010100101100001
1010110100001111
1010110110010100
0010000001000110
0001101001100001
0010010001101010
1011000101001111
1011000001101110
1010101101110000
1010111111100110
1010110100101011
0010001110010100
1010111110101101
1011000011100010
1011001001011111
1011000110011011
0010101101100101
1010110001100100
1010111110010100
0010100011111011
0011001010001101
0011000100011110
0001111000111100
0011000110001011
0011001110110100
0011010010000100
0010011100001011
0011000000110100
0010100000001100
0011000001011000
0010110011011110
1010010010101100
1011000011000110
1011000011000001
1010110010000011
1011001001000110
0010111101001100
1010110100001010
1010100101100101
1011000010000111
1011001110011100
0011000111001010
0010100110111000
1010111111110100
1010100100000011
0010111110001101
0011001001000001
0010111011110010
0011000011110010
0011000010110000
0011000100111010
0010110100011111
0011000011110101
0011000111100111
0010110111110111
1010100111101111
1010100011100100
1011000110111101
1001100011110110
0001110000101101
0001111101010101
1011000001111001
1011001011000000
1011000000010100
1011010000000101
1011000010111110
0010110101110001
0010101101101110
1010011010000100
1010110111010000
0010101010010101
0011000000011110
0011000000111001
0011000111001110
0010100101010111
0011001000100001
0010111011000101
0010111100011100
0010101011010100
0011001000101010
0010000101010111
1010011000110110
1010101000010001
1010100100011001
0010101100010101
1010101110100111
0010100100000111
0001111000000010
1010010011111011
0010111011001000
0010110111010001
0010110000110111
0010110000011000
0010110000110011
1010010000010101
0010111001101000
1010011011000010
0010101101011010
0010111100010110
0010011100110011
0010101010010011
0010100100000111
1010011000111111
0010100011001100
0010100100000111
0010011001101100
0011000011101000
0011001111101010
0010111100100111
1010111110101111
1011000111110100
0010111100110101
0011010001111010
0011000010010010
1010111100110000
1011010001010111
1011000001110101
0010100111100110
0011000001110101
1010110000000110
1011000011011010
1011010001010011
1011000011000000
0010100111101100
0010110001010110
1010111011101000
1010100000011011
0010101100011100
0010111110011111
0010100100010001
0010011110000111
1010011011011100
0011001001011100
0010111010110000
1010101000100111
1011000100111001
1010110010000000
0011000101111010
0011001101100110
0010011101100010
1010111000010001
1011000100111000
0010101111001111
0010111101010101
0011000111111111
1001110110000110
1010111110010000
1011000111011000
1010000100101001
0011000100110110
0001100001011000
1011000111100000
1010111000011111
1010110011001011
1010100101101100
0010100110100100
0011000001110111
0011000100110001
0010111101000110
1011001000011101
1011000111110001
0010110100110011
0011000111011000
0011001011111111
0010100000010010
1010111100010101
1001100010110001
0010100101011111
0010111010011001
0010100100101111
1011001000111010
1011001010111101
1010111100100011
0010111100010011
0011000111011111
0010100100110010
1011000110010111
0001110101101001
1010101111011011
0010100001001001
1010110010110011
0010110100001000
1010100100110011
0010110001001000
1010110101111101
1010110000010101
1010111101110111
0010101011000011
0010101100100000
1010100011101101
0010110011011010
1010110011010010
1010111111100111
1010111110100001
1010011111010010
0010110001000111
1010111011000010
1001101000100001
1010100010011100
0010000001111011
0010010011001011
0010110000011011
1010110111011110
0010110011100110
1010100101000001
1010111001101000
