1010100110011110
1011000010000000
1010111100000100
0011000010110011
0011011011000000
1010111110000010
1010011001100100
0011011001000001
0011011011011100
0011100000010101
0011001000111110
0011011011001011
0011100100001111
0011100110110100
0011100000101101
0010101101011111
0011000111001011
0011100000110010
0011100101101001
0011011010100000
0011001110010001
0010111101011110
0011100000011111
0011010101100111
0011010001001110
0010111001110101
0011010111000000
0011010000010111
0010111010111100
0011000010001101
0011000100111010
0011011100110000
0011001000011001
0011011001111001
0011001001100100
0011011010101101
0011100011011101
0011011000011100
0011001010100010
0010101001001111
0011011001100011
0011011011000010
0011100101001101
0011100000001001
0011000010111101
0011010101110110
0011100000111111
0011011010011101
0011001111011011
1010110001001101
1001111010001101
1010110110100110
0011001000011011
0011000101000010
0011010001010111
0011010011000001
0011010100110011
0011100011001010
0011100011011001
0011011000010011
0011010000100101
0011011110001101
0011100001010000
0011100110100001
0011010101111101
1001111101010010
0011010110011101
0011011001011010
0011100011010111
0011000001110110
1010110110110100
0010101011001110
0011001101100110
0011011100001001
0011010101010000
1011000101100100
0011000000000111
1011000101010000
1011001010110000
1010111101110100
1010010001000001
1010100001100110
1011000111110101
1011000010111011
0010001100001010
0010100110001110
0010010001110100
1011001000101000
1011001011001100
1011001000111010
0011001100000010
0010100001100100
0011000001000110
0011001010001110
0011000000100101
0010100110111101
0011000010111111
0011000011001110
1010110010110110
1010111111100001
