1010110000000110
0010010101110001
0010011001100000
1010001010100010
0010111101001111
0010010010110101
1011000000111011
1010101101000111
0011000001010001
0010111010110110
1010001100001110
0010010001100100
0010010000101001
0010111100101011
0010110101111110
1011000010010111
1010100101011101
1010101001011001
0010110001110010
0010111011111010
0010100000111010
1001100010011111
0010001000001101
0010011100110000
0010010100101100
1010110001000011
1010010100101011
0010000111111000
0001100111010110
1010101101001010
1010110011010111
1010010111101011
0010100010110111
1010101001001001
1001111001110011
1010110101111111
1010110011101011
0010001010110111
1010001011111011
1010111011010010
1010110110101000
1010101110101100
1010111010111110
0010110010010101
0010100010110101
0010101001111110
1010111000011000
0010010100001001
1001100110110101
0010111110101000
0010111010001010
1001100001011000
1010101111101010
0010010000011110
1011001100010101
1010010001011101
0010010001100001
1001101111010100
1010110110011001
0011000110010010
0010111101001000
0010101111110110
0010111011010010
1010010010000111
0010110010010100
1010010111101011
0010100011001101
1010110010101110
1010001101010110
1001110111100001
1010000111100000
1001010100011100
0010100001000001
0010101101000111
0010110010111011
1010000111101001
0010011010001111
1010111100001000
1010100100001000
1010101100100011
0010010110010011
1010100011010100
1010000110011011
1010101100000001
0010001011001100
1010101011111011
0010010100011001
0011000000010101
0010111100100000
1010111000111001
0010011000110000
0011000111000101
0010110110010101
1010100100111100
1010011101100010
1010100010101001
1010101010000011
0010100011101111
0010001010100010
1010110001100111
1010101101011000
0010111011101111
1010110101011010
1010001001010001
0010110111111010
0010010101111110
1010111110111100
0010111110000001
0010010011000111
1010110010111010
1010100011100011
0010001001001111
0010101101101111
0010110010001001
0010100100100011
1010000000110000
1010000100000000
1010111000011100
1010111110100010
1010110100101110
1010111010111100
1011000111011110
1011000010001111
0010011110011100
1010110010101110
1010010001001011
0010101111110111
1010000110101101
0010101000001101
1010110000010101
0010101011001101
0010111011100011
0010001011011000
1010101100001100
1010100011001111
0010111111100101
0010100000010110
1010100101101101
1011000011101000
0010101000111100
1001100101000100
0010101001011100
1010111010101110
1001010001100000
0010110011110011
1001101010011111
0010100100001001
0010100010100110
1001011101010000
1010110000001010
0010110111000001
0010110011101011
1010101010011011
0010110011100011
0010001011111011
1010110000110000
1010100100011111
0010100001000010
1010111101001100
1010010110101001
1010011110110110
1010011101111001
0010110101011000
0010111011111101
0010100011101000
1010111000011100
1010110001010101
1010110100101100
1011001000110010
1010011100000011
0010101001100110
1010111111100111
1010111011111110
0010111111010000
0010110111110000
1010111011100010
1010000011010101
0010101110000000
0010111100010101
0010111011101111
1010111011111011
1010101000100000
1010010110000000
0011000100001010
0010111111101111
0010101100010000
1011001100110101
1010110000010010
0011000101101111
1010000000110011
1011001100110010
0010101011001000
1010111001010110
0010010011101000
0010100000111011
1010100011011001
1010010001101100
1011000010011111
1010110011001011
1010111101110001
1010110011100100
0010010000101000
1010110100010100
0010000111011011
0010110110101101
1010000001100001
1010110110000011
0010100101011100
0010110011101011
1010011001001110
0011000001101011
0010101110011111
0010110001010110
0010100010011010
1010010100001110
0010100011100011
1010011011010010
0010100110101101
0010011010011100
0010001110110011
0010010010000100
0010011100100101
0010010101111101
0010101010001010
1000110001001110
1001011001011101
1010010110000100
1010101011110011
1010001100101000
0001100100110001
0011000101110000
1010010010001000
1010011101100101
1010100101010101
0010000010100100
1011000011101010
0010000010111100
0010110011000011
0001101110110001
1010100000011011
1010100110010011
0010011110110101
1011000001100111
1010110001110011
1010110001001001
1010101010101101
0011001000110111
1011001101110101
1010111110010100
1001110111111011
1010110001010011
1011010010000000
1010100011011000
0010111001000111
1010111010000000
0010110111001011
1010001111100010
0011000110010101
0010110010111000
0010111000110110
0010110000111011
0010111001011110
0010001000011010
1010101000100000
0001110111110011
0011000001000111
0010101010001000
1010101111011001
0010111011100110
0010110010101000
1010110000101000
0010110011001101
0010100110000001
0011000011100000
0011010001101011
0010101010110110
1010010010010010
0010011000111011
0011000010111001
0010110101100011
1010011100100001
0011000011100000
1010101111001010
1010100001100110
0010101001110101
0011000110000111
1010100100001010
1010100011111100
1010100100011111
0001110010000000
0010111011010111
0010100110000100
1010100100110011
0010101000111010
0011000101111100
1010101000100001
1001110011100111
0010110001001111
0010010001000010
1010100111101010
1010100111001110
0011000110101000
0010100001100100
0010111000110100
1011000010111010
1010011010011100
1010111110000011
1010111101100010
1010110100000001
0011001000110111
1010101001100111
0010101000011111
0010111010111000
0010010000100111
1010000111000001
0010111100001010
0010101000111110
0010100101101110
0010010001101010
0010010100111110
1010110001110010
0010110110010101
0010110110000100
0010100111101001
1010011000001111
0001101010101011
1001010100001110
1010110001001111
1010110101110001
1010110001100110
0010111011001101
0010010000010001
1010111110101001
1010101010110010
0011000001100011
0010010010100100
1010010010011000
1010101101101100
0010101001011011
0010101001001110
0010000010111000
1010110011000011
1001101111001010
1010101110001110
1001111110010101
1010100110110100
0010101101000010
0010101001100010
1010111000001111
1010111111001011
0010100010000111
1010110010010000
1010100010010001
0010001101010101
1010001010110000
1010100100000000
0010011001001101
1010110001101110
0001100100100010
0010000100001110
0011000100110111
1011001101011110
0010111010111101
0011001001100011
1001101011111010
1010111111011100
0010101100100001
0011000110011111
1010110110110011
0010101000110010
1010111100101011
1011001000011001
1010011100100001
0010111110001001
0010111001101000
1010110100111101
1010110011000001
1010000101010010
0010110010101010
1010111110101001
1010111100111101
0010001011011011
0011000011011001
1011000001001100
0010001100011100
1010110110000111
1010101011011011
0010100011001010
1010101100101110
0010100010111000
0010101010100100
1000101010000010
0010111011000000
0010100100110101
0010011110111101
0010101001101011
0010100000010001
1010001101100001
1010110000001000
1010000010010100
0010100001011111
1010100111000010
0010101011100111
0010111111000101
1010110100001110
1010110000100110
0010101001110010
1010110111001001
1011000010010110
1010101111000010
1010110101000110
1011000001110101
0010001111110011
0010101101110100
1001110101011000
0010100110110110
0010010101011001
0011000011111100
0010110101110111
0010101101100011
0001100101000100
1010100110110111
0010011101010000
0010100100011011
1010101110001100
0010110100011110
0010101000010111
1010110100111011
1010110111111001
1010110111101010
0010111100101001
1010110000011010
0010110110111000
0010110001011000
1010001100100001
1010111001011000
0010011010000010
1010111011111011
1010100010010101
1010010100000010
1010111100110011
0010101100110110
1010001001111110
0010111000111100
0010110010011110
0010101110001110
1010110011111100
0011001011010010
1011000110101011
1010110110011101
0010101010011000
1010010001000101
1010110010110100
0000110111100110
0010110111011100
0010110001111011
0010101001111001
1010000000111011
1010110011100101
1010101001111110
0010001101011010
1010000001101000
1011000111001001
1011000000101110
1010100011101100
1011000110001001
1011000000110101
1010100011010111
1010110100101000
1011000101010000
0010110100001001
0010010111111000
0010010000010111
0010100001011101
0011000111110101
1010100111101000
0010010100011110
1010100111100001
1011010010100010
1011000010010111
0010011011001101
1010100100001101
1011000011001101
1010111110101011
1010010111111010
1011001010101110
1010101111011010
1010100110010011
0010101111010011
0010011010011000
0001111000100001
0010100100011001
0010101011111000
0011000011010101
0010001011100011
0010110001001100
0010001111001011
0010111111100101
0010101011111110
1010111101000110
0011001100100110
0010011111100000
0010100111000011
1010010011101010
0010111011110110
0001110000111110
1010110011000101
0011000111101101
1010001101011000
1010000001110110
0010110000100101
0011010100110010
0010110010110101
0010110000011100
0011000000110001
1010101011010111
1010110000100100
0010100010000111
1010100101000010
0010011001011110
1010101100011000
0001111001010011
1010010000101100
1010111001010011
1010010010101100
1010111101001110
0010100101100001
0010110010110010
0010011011000100
0010011110011111
0010011010011010
0010101011011111
1001111100011001
0010010010010001
0010001110000100
1010100111001101
1010110101111110
1010110101010100
1010111000001011
0010110011010011
1010010000101110
1010011010011111
0001110111011110
0010110111101010
0010110101010000
0010100010101110
1010101111111001
1001011000011111
0011010010100111
0010010111110101
0010010111001100
0010101100111011
0011000010100100
0001110000000101
0010101101001001
0011001010101010
0010100100110100
0010111000011101
0011001100101100
0011010010000001
0010101111001100
0011000101000111
0011001001010101
0011000011100010
1010110000001110
0010101001000101
1010001000001011
0010110010000001
1011010101100000
1010111000110110
1010110111010111
1010110000010010
0010010100011101
1010000011111010
1010110011001011
0010110101011011
1010110001000010
1010111100010100
0010100010111110
0010111111111101
1010111111010100
1010000100100111
0011000011011010
1001111000010111
0010101110011001
1010110011111111
1010010110101101
0011000000110111
0010111000001101
1010111110110000
0010111000001110
1000111101100111
0010010110100100
1010010001011100
0010101101010010
1001010001011101
1011000110111000
1010111010111100
1010110100011101
1011000100000111
0010110101101110
1010011111110000
1010110000011101
0010010101100100
0010110110011111
1010101011000010
1001000101011111
0010101100110110
0010111011010000
0011000001111110
0010101110010111
0010110110100100
0001101100101001
1010100111101111
0001110110111001
1010101000100100
1010011110000010
0010100100010100
1010101101000100
0010101110011110
0010111010100000
0010011011111100
0010010000000001
0010011001001111
0011000110001100
0010100001011011
0011000000101001
0010110000101000
0010001010001100
0010110000011010
1010001010111001
0010100100110101
1010011100101011
0010111000110011
0010110000000101
0010100010011110
1010001110111110
1011000000110011
0010111001010101
0010111110100110
1011010010000000
1010110010101110
0010101011100101
0011000010000001
1010101000100100
1010111100010010
1010111100110011
1010011001000000
1011000111111100
1011000001011101
1010111000010011
1010001000101110
1010111110101011
1010110011101010
1010011001101000
1010001110001101
1011000100101011
1010110100001000
1000111010011110
0010100101101010
0001011101111111
0011000100001111
0011001110100111
1010100011110111
1010110101110000
1011000011110100
1011010001111011
1010100000110011
1011000001011000
1010110100010110
0010100111001100
0010111100100000
1010010110000000
1010111010011111
1011000010001111
1010110010001011
1010101100111010
1010111001011111
1010001011010011
1001011011011100
1010101100010110
0010011000000001
1010110010011001
1010000011110000
1010110001000001
1011000100111010
1010111100100011
1010001111010011
0010110111001101
0010110000010110
1010100100100011
1010111000100110
0010010011011100
0010111100100010
1010110010100000
0010110110010111
1010010001110010
0010111010010101
1010101101000110
0010111001011011
0011001000001110
0011000111001101
0010101110101001
1010110111001101
0010101101010011
0010101000110000
0010110000101101
1010100001001000
0010110010111010
1010101000010100
0010001010001111
1010111100011101
1010010010110100
0010111010001100
0010011100101010
1010110000011011
1010100010011101
0010111001001100
0010110000100001
0010001011101100
1000110000010010
0010011000000001
0011000000100010
1001101001000001
0001110110101100
0010110111000001
1010110100010110
1011000010101101
1001000111111001
0010110010011010
0010110111001001
1010101101100101
0010101001000101
0010111110100101
1010101001011111
0001001000001100
1010110000111100
1010110101100101
0010011111001010
0010101111011100
0010011011101000
1010101110110101
1010111111010011
0010100000011101
0010111010011010
0010011110110101
1010100100000011
0001110001111001
0011000111010100
0010111111010001
1010011011100011
1010101111001111
0010001001101001
0011000110100000
0010111100110101
0001111111010010
1010101110001010
1010110100100100
0010101110000001
0010111010111000
1011001110101010
0010111100000001
0010111011010110
1010100001000010
1001100011000001
1010011001110000
1010100010001100
0010101101100000
0001101111010000
0010100111111100
0010101111100110
0010001010110000
0010111010000101
0010101011001010
0010010000110011
0011000100100001
1010111000111010
1011000001111011
0010000000001111
1010110011000111
1010110110101010
1010111001101111
1011000011101000
1010010010000001
1001100101010000
0010111101110111
1010001000110101
0010110000111000
1001100010010110
0011000000110111
1010101011101000
1010010001011111
0010111011000001
0010101011001011
0010110010000110
1010110110001101
1010111110100110
0010101101100011
0010101001000100
1010010101111001
1010101011011010
1010111000110011
1010111000011101
1010111100010111
0010100010001010
0010111100101010
1010111010000100
0010100110110011
0010111010111010
0011000011001111
0001101000000101
0010111110000101
1010011010000001
0010011001111110
1010101011011100
1010110000111000
1011000110110010
1011000010000010
1011010100001000
1001101110011100
1010101001010010
0010010111001000
1010111000001001
1010100101110000
0011001110011010
1010101100111001
0010110111110110
0010100110010000
1010110100110001
0010110000110000
0001111011000001
1010110111011011
0011000000111101
0011001001111011
0011001001001100
0010101010011001
0010000000000001
0010001110100110
0010000001001010
0010110111001000
1001110111110111
0010111110001100
1010100110101111
0010101011110001
0010100011010100
0010110000110101
0010100110111000
1010100010010010
0010010100000001
0010100111101011
0011010001110111
0011010011100000
0011000111111011
0010010001110010
0011000000101011
0010110111110110
0010010111010101
1010101010010100
0011000001110110
0010100101000111
1010111100000101
0010111001010101
0010110001001100
1010100111011000
1010001110100010
1010110101101111
1010011011101110
0010110001000001
1001110100100010
1010101011000100
1010011111000111
0001110010001100
0010100110011100
1010110111101100
1010011000011001
0001101001001000
1010100010111110
0010111000101110
1010000111111111
0010100111001000
1010011101110101
1011000000111001
1010110000010101
1011000101000001
1010011000111001
1010110111010100
1010100010011101
1011001011010110
0010001010111110
0010100011101010
0010101011001011
1010110100110110
1001111111111010
1011000001011010
0001111100100110
0010100001000111
0010100111010100
0010011011101000
1010100001111110
0010110001000011
0010101100011011
0010100001000111
1001111110000101
1010100000110101
1010101101110010
0010101101110111
1010011111000000
1010101000000000
1010100011110011
0010010111111011
1010010100100101
0010000101011011
0010110011100010
0010100110101110
1010110001111011
1010011001000111
1010101011010001
1010110100011110
1010110000111010
0010101000101010
0010000101000110
0010110101000000
1010110110110001
0010010100110000
1001111010010011
1010110010010101
0010100011001100
0010110000011100
1010011111010001
0010110000101100
0010110001011101
1010111011000110
1010000100100010
1001011010010111
1010011110000001
1010101001010101
1010111111111101
0011000001001111
0010011011100000
1001101111010001
1010101000111101
1011000001101010
1011000111010010
1010111000001010
0011000011110011
1010100001111111
1011000110111011
1011001111001001
0010101000001010
1010101011011000
0010000010110001
1010101010100010
0010110011001000
0010100010001000
0010000111011110
0010010010110000
0000110111110101
1010101011111101
0011000011001010
0010110010000110
1010100000110101
0010100100011100
1010101001111100
1010111101100101
1010111010111010
0010111010010000
0010010100000001
1010111101111100
0010101110001011
1010011011001011
0010100000101101
0010001011100001
1010110110010001
1010010010110001
0010110110111110
0000110110111101
0010110011000000
0010110110011111
1010110101011010
1011010001101000
0010111110101001
0010001000100000
0010110011001100
0010110100100001
0010110101010001
0001001100100101
0011000000111111
0010111100100000
1010111001110101
1010110110111011
1010010011100101
1010100000111100
0010010111100001
1010101100001010
0010000010101110
0010110101100110
1010010010110010
0010110110111011
0010110000011010
1010111100111001
0010100011010000
1000011111100001
1010010100111000
0010111111010011
0010110111100100
1010100110001101
0010001101110011
0010101100000100
0010110001110111
0010111000101011
0010110100101110
0011001110100100
0010100001101100
1010010100111001
0010100100110101
0010100101110100
0010110110111110
0010100101111101
1011000011100001
1010100100110101
0011000010110100
0010100110011011
1010110100000000
1010011000010000
0011000100111000
1010110011101011
1010111111000111
1011001000001100
1010100001001101
0010110000001001
1010111100010011
1011000100101010
1010110011111001
1010110110111100
0010110101100010
0010110001101110
1010101001110111
0000101001101010
1010010010110101
0010110111110111
0011000010110011
0010000011001101
1011000011100001
1010110100100101
0010001010000101
1010101101110001
1011011000100110
1011010000110000
1010101001111010
1011001100011010
1010010010001100
1011001000110100
1010110101000110
1010000111001001
0010110001111111
0010110100111101
0010110110101110
0010111111010110
0010111000101101
0011001001000001
0010000110100011
0011001100000111
0010101100011001
1010101010001100
1010101010101110
1010011000001011
1010110101111011
1011000011011110
1010101001110101
1010111010100100
0010101011111001
1010011011100000
1010010111101100
0010010011101111
0011000010011111
0011010101000101
1010111110010101
0010110011101010
0011001001011110
0011010001111010
0010111100001110
1010110101000101
0010110101110111
0010101001010101
0011000111111001
0011001101000000
1010000100110101
0010011011010000
0010110001110010
1010101101111101
1010101001011111
0000111100001101
1010100001010101
0010011001101110
0010110100101111
1011000010101110
0010000000101100
0010100100100100
0010101100000110
0010111110001001
0010101001001001
1010100001010000
0010101010110011
1010001110001000
0010101100110111
0010011001101100
1010110010011000
1010111000000001
1010100011110110
0010101111110101
1010110111100111
1010111111110011
1010110010100000
0010011111011000
0010000111101001
0010000100100100
0001110111111011
1010110011111111
1010110100101101
1010010011001110
0001101100010110
1010100000011100
1010101000001101
1001111101010100
0010110101101111
1010101001111111
0001101100111100
0010110101110010
0011000001110010
1010100010110001
0001111110101111
1010100000110101
0011001000001101
0011000101111100
0010110111111110
0001111101110101
0010100111000000
1011000000011011
1010111011101010
1010100000011001
0011000001111010
0010110111001101
1010110110101101
1011001101101011
0011000000011111
0011001001000011
1010001100001100
0001110010010111
1010110101000000
0010100011100100
1010111000010100
0010100100100011
0010011011010011
0010100101110100
1010111110110110
1011000100100111
0010000110011101
0010110000110011
0010110000111011
1010011100000000
0010110000111011
0010110010010001
0010111110110101
0010111100011011
1010111001111001
0010100111100101
0010001001001100
0010011000110011
1010110101011111
1010111000110100
1010111111011011
1011000010001000
1010110101001011
0010000100101100
1010100100100100
1010101110110100
0001100000111111
0010100111000110
1001111110110010
0001110100001110
0010111000101111
1010011111111101
1010000110100100
0010000110001001
1010111001101110
0010011110110101
1011000111011010
1010110100110100
1010011010001010
0010110010100111
1010100110000100
1010100001011011
1010110000010110
1010110110101100
1010010100101001
1010110000100101
0010011011111111
0010100111000110
0010101001110000
1010010110111110
1010101111010001
1011000110001110
1010100100000111
1010111110011100
1011000010101110
1010010111001110
1010110011111100
1010110011101011
1010100001101000
1010110000011001
1011000011100111
0010110011011001
0010110110101101
0011000111111000
0011000101110001
0010101111001000
0010110010001101
0010110000010001
1010110101010001
1010111101101110
0011000010110101
0010100100001010
1010100110011010
1010100010101110
0011000011001111
1010110000110101
1010101011010010
1010100111110010
1001101110110111
1010010100101110
1010101011011111
0010100010011011
0010110010001101
0011000011111011
0010110010111001
0010010000011111
1001110111100101
0011000011101011
1010110100110011
1010111010101110
0010100010101000
0010000100011110
1010111101011111
0010110001001111
0010110100000001
0010001010101000
1010100000111100
1010110100110101
1010011011000000
0011000001001101
0011000011000110
0001110001011000
0010110001010110
0010110100101000
0011000010111011
0010000110110000
0010101111101101
0010110110010101
0010101100000111
1010111011110100
1010100111011111
1010010001001111
0010011001111001
1010101010100000
1010110000000010
1010110110111110
1010111011010101
1001011001011011
0001111110000100
1010110111110101
0010111001110101
0011010010100010
1010110100011100
1010110011000011
1010110101111010
1010110001001011
1011001001001010
1010101000011011
0010101010101000
1010010010100011
0010100001011000
1010110100011101
1010110011001100
1010101001000100
1010101101001010
1010110100111011
1010100000000011
1010011100100001
0010100111001110
0010010001001101
1010000100000100
0010000110000001
0010100101111000
0010010110010111
1010110001111110
1010100000100111
0010011011111110
0010010000100001
1011000000100101
1010010100000000
1001101111011000
0010010110000110
1010001011011100
1010101101110111
1010101010101110
0010100001010010
0010110010000101
0010111000011101
0010101000011001
0010110011011000
1011000010111011
1010101000001001
1010110101001100
1010101011100001
1010011011111001
1010000100101100
1010101111101001
0010011110110111
0011000101101111
0011000011000110
1011001001001110
1001110001000101
0011000101011011
1001100110010010
1011010000010010
0001110010000111
0010110100111110
1010011010100101
1010010110010110
1010111110011001
1011010000110011
1010010010001101
1010110101111101
1010101000110110
1011010000001001
1010101111101101
0011000101000011
1010101000001001
1010101101101010
1010111010001001
0011000001001111
0011000000111101
1010110111011000
0010110010111010
1010000011110110
0010100001011111
0010011010110101
0010100111000100
1010101111010000
1010110100001101
1011001100110100
1001011110101101
1010111010010111
1011000010111110
1010010100111011
1010111000001101
1010101110010101
1010111011110101
1010111001111111
1011001110101100
0010111000101000
0010100110110111
0010010001000011
0010010001101011
1010101111001100
1010110110000101
1010000110001111
0010110001100101
1010111010111011
1010101010001000
1010100101111000
1010100110001101
0001110000010111
1001100110100000
0010000010011110
0010100011010000
0010111000110110
0010101010100000
0010101101111111
0010100010010011
0010111000010010
0011000110000111
1010011001000101
1010011110100000
1010110100001000
1010111111100110
0010101101001111
0011000011011110
1011000010011001
1010110010110110
1010110110011110
1010101011101000
0011001000001000
0011000010011110
0010100010100101
0011000100110100
1010100011001100
1010100001100011
1001111001110000
0010000001100110
0010110100101000
1011001001111000
0010110001001001
0011001010100001
1011010001011001
1010110010011110
0001111110100001
1011000000000110
1010101000110011
0010010111111111
0010100000100000
0010110010011101
0010010110001110
0010110111001010
0010111001001001
0010001000100011
0010100000010011
0010100001111101
0010100110011100
1001100110110001
0010110111111001
0011000011011111
0010110110000111
1010011000110000
1010000010101110
1011000111001110
0010010110001101
0010111000010101
1000001111101100
1010110100110101
1001110000001110
1010001110100110
0010110011010111
0010110001000110
0011001010100110
0010110101010110
0010100010101111
0011000111101000
0011000111100100
1010110001101011
0001111111000100
1011000011011100
0010010101100001
0011000001100000
1010011111000110
1011000101010010
0010100010010011
1010001110000110
0010111100110001
0011001110111110
0011000001000100
0010101100000111
0010100010110101
0010001111000001
0011010001001010
1010010100000010
0010110010110010
0010111010110011
0011001001001001
0010101011010011
0011000001111110
1001110010000100
0010111010110111
0010100000011100
0011000110010100
0011001101101010
0010011101010011
0010101111100001
0010000010000011
1010111100110101
0010101000100101
1010101111111001
1001011100000111
0010100001111110
1010100000110000
0010100110010101
0010010100010010
1010100101100010
1010011000100000
0010011010100100
0001001010111110
0010010111101010
0001111101011000
0010110000011000
1010001011101110
0010011100001111
0010100110110001
0010010111100100
0010100101111011
0010010111010010
1001101010110111
0010100000011100
1010110101101101
1010100100100001
0010110111111101
1010011010110000
0001101000110111
1001101111111111
1010100100001010
1010100101001011
0010000000010011
0010101100001110
1001100111110110
1010101000111111
0010110111000001
0010001010011001
0001111111100110
0010110110001000
0010111101110101
1011000010000011
1010111110111111
0010111010110100
0010110101101010
1010110110000110
1010100110100011
0010100000011000
1010111110011110
1011001000010100
1011001010111011
1011000011001101
0010101000111010
0010110100010000
0010011101000000
0010100000111010
0010011110101010
1010110010100011
0011000111110110
0010110011111001
1010101001010011
1010111001000101
1011000101101110
1010010011011010
1010111001011111
1011000011001011
0010000101110100
1010111010001001
0010110011111110
0010110010000101
0010010000011100
0011000101011011
1010110001101011
1010100000011011
0010111111101001
0010010101111111
1010000110011001
0011000010100111
0010101000100011
1010111010011101
0010111100000100
0011001110011110
0011010111111000
0011000111010000
1010001100110010
0010110011010000
1010111100001010
1011000100010000
0010111111001110
0010111011001000
1010010001001001
1011000000100110
1010110010111100
0010110010000111
0010010011011011
0010110001001111
1010011001000100
0010101100001000
0010011110001110
0010101000001100
1010110110010010
1010110111111011
1010001001001110
0010110000110100
0010010000101001
1010101011010011
1010111001111110
1010101100011101
0010100001000101
1001101101011011
0010001111101110
1011000011011011
1010110010011100
1010110100001110
0010100111110111
0010110101010011
1010010101101000
1001110011111110
0010110110111110
0010110111011000
0010111101001100
0010110001001000
1010001011100101
0011001110001001
1011000011111101
0010111101000000
0010111110010101
0010001101010010
0011000111000110
1010100110101000
1010100011010010
0010010011000110
0010001010011110
1011000100111010
1010111011011000
1010100111010001
1010110101110101
1010110000000100
1010000110100000
1010011100100001
0011001001100000
1010110010111110
1010110000110001
1001100010000011
1010011011110110
1010110011000000
1011000001010100
0010110001001010
0001010100001001
0010100000101111
1011000101010111
0010110100110111
1010101100110011
1010000101001110
1011000110100101
0011000000000010
1010100100111010
0010110011100011
1010111000011001
1010011110010011
0001111100100110
1010110010001010
1010110101101110
1010101010101110
0010100101111011
1010010010100111
1010110001110011
1010110100100010
1010110010100010
1010111110101100
1011000100111110
0010110111100111
1010100100001001
1010110111100010
0001110110111110
0010010001010110
0010111100000111
0010111110011000
1010101011111100
1010110010001001
1010100111111011
1001011010110001
1011001000001100
0010110010111111
1010111101001101
1011000001111101
0010011111001000
1010111010001101
1001101000110100
1010110110110010
1010000001110011
1011000011110110
1011000011100101
1011001110101011
1011001101100101
1010110000001100
0010011100010101
0010110100000100
0010100011111001
0010110011101101
0010110000000110
0010001011101110
1010110100001101
0010011100100111
0010101010110011
0010100000001101
0010011111010011
0010110000101111
0010011001001010
0010011100000000
1010000000010110
0010010101100100
0010110100110101
0010100011000010
0010110111011010
0010111000110110
0010110110011101
0010110011000011
1010011011001001
0001110111010000
0010110100000100
1001111100110100
1010100100110010
1010101001111110
0010111000110010
0001111100001100
0010110011110011
1010110111011001
0001001100011111
1010100100010001
1010001001110101
0010100100110000
1011000001101100
0010010001101001
0010110101110111
1011000000001111
1001111111011010
1011000101100000
1010110111001110
1001110001101100
1011001101110011
1010111111100101
1010111010100010
0010100111110010
1010000101000111
1010100101111001
0010100000000111
0010110101101100
0011000000010011
0011001000011100
1010100101000010
1010010011101111
1010100001000111
0010100101100000
0011000001111110
1010101011001000
0011000000011111
0010110001101100
1010100110110010
1010101001100000
0001111011011111
0010011010101111
0010100100011000
0010110110100101
0010111001100000
1001101100110110
0011000010000111
0010111110110111
0010010111000000
1011000000001110
1010110001110111
1010101010001111
1010111001011001
1010111000111111
1010101101000001
1010111100101001
1010110110000010
1011000100000000
1010101100011100
0010010011011110
0010100010011110
1010010000111000
1010010101000010
0011000011001011
0011000001101001
0010111000010011
0010101100010000
0001110111100111
1010100111010101
1010101101000010
1010101110111011
0010100010110110
1010110111100011
1010100001000010
1010110010100000
1010110101001111
1011000101100111
1010110010101110
1010000111001000
0011001110110001
0010100100000101
0011001000011001
1010110100111111
0010011010101110
0010010110100101
0010101011001001
1010110101010111
1010010000000110
1011000100001001
0010100001001101
0011000100110000
0010011101101010
0010101100000011
0010101000100011
0010101000101011
0011000000000011
0010101101110001
1010110010011111
0011001110110111
1011000000111010
1010111010010100
1010111111101110
1010000110001001
1011001001111000
0001101000110010
1010110110110001
1011000111001011
1010010100100010
1001110010010110
1010110111110001
0010110010000101
0010111110001010
1011000010110100
0010110010010001
0010111111011100
0010111100011100
1010100111100001
0011000110010010
0010011110110110
1001011100100001
0010111100110111
1010111100111101
1011010000001110
1011000111110101
0010100010101101
1010010000110000
0010101000111110
0010100111100101
0010011110010100
1011000110001010
0010110111011010
0010101110100100
1010010110110101
1001111001100111
0011000000110101
0010111000101111
1010011011011101
0010010000100010
0010111000000101
1011000010010001
0010100101000110
0010111101110001
1011000100101100
1010111100000100
1010111001001001
1011001001001100
0010110000010101
1001010000011011
1010110011010100
1011000001111011
0010011001000001
0010100111110000
1010010001011011
0010011001010011
1010010010001010
0010100000011001
1010110010001011
1011000011001110
1010100111110100
1011001010100100
1011001100011010
0010111010101100
0011001001101001
1010111110100111
0010110011111101
0010110111100001
0010010101101101
1010000100001101
1010001001000001
0010100101011100
0010110010101101
1010101100010101
0010000010000000
1010011011001111
0010011111100000
0010101000000110
0010000111010011
0010101011001010
1010010101001101
1010011010010111
0010110011011011
0010100001100100
1010110011011000
1010101001100010
1010110010101010
1001100000100001
1010010011110010
0010100010101011
1010111010110011
0010111011101000
0010100101001010
1010101011001011
0010110111100010
1001111011101000
1010110101011010
1010010111001011
1010100101010101
0010101010001011
1010110001101111
0010111010011111
0010101011010100
0010010111011110
1010100001000110
0010100010100000
1011001010111010
0010110110111011
1010110000111110
1010111100110001
1011001010111010
0011001001011110
1010111011100000
1011001100110100
0010101001010101
1010100100001101
1011001010010111
1001110101010000
1011000111011101
1010111111101011
0011000001001011
0010111001000111
1010110001101010
1010100010010110
0010100100100110
1001100000100110
0011000111001100
1010101010111111
0011010000010101
0010110001110011
1010110001011000
1010100100011111
0010110001101111
0010100010111110
